const unsigned char trained_tflite[] = {
  0x1c, 0x00, 0x00, 0x00, 0x54, 0x46, 0x4c, 0x33, 0x00, 0x00, 0x12, 0x00,
  0x1c, 0x00, 0x04, 0x00, 0x08, 0x00, 0x0c, 0x00, 0x10, 0x00, 0x14, 0x00,
  0x00, 0x00, 0x18, 0x00, 0x12, 0x00, 0x00, 0x00, 0x03, 0x00, 0x00, 0x00,
  0xa0, 0x0c, 0x00, 0x00, 0x10, 0x05, 0x00, 0x00, 0xf8, 0x04, 0x00, 0x00,
  0x3c, 0x00, 0x00, 0x00, 0x04, 0x00, 0x00, 0x00, 0x01, 0x00, 0x00, 0x00,
  0x0c, 0x00, 0x00, 0x00, 0x08, 0x00, 0x0c, 0x00, 0x04, 0x00, 0x08, 0x00,
  0x08, 0x00, 0x00, 0x00, 0x08, 0x00, 0x00, 0x00, 0x0c, 0x00, 0x00, 0x00,
  0x13, 0x00, 0x00, 0x00, 0x6d, 0x69, 0x6e, 0x5f, 0x72, 0x75, 0x6e, 0x74,
  0x69, 0x6d, 0x65, 0x5f, 0x76, 0x65, 0x72, 0x73, 0x69, 0x6f, 0x6e, 0x00,
  0x0d, 0x00, 0x00, 0x00, 0xb0, 0x04, 0x00, 0x00, 0x78, 0x04, 0x00, 0x00,
  0xa0, 0x03, 0x00, 0x00, 0x40, 0x03, 0x00, 0x00, 0x38, 0x03, 0x00, 0x00,
  0x30, 0x03, 0x00, 0x00, 0x10, 0x03, 0x00, 0x00, 0x08, 0x03, 0x00, 0x00,
  0x64, 0x00, 0x00, 0x00, 0x5c, 0x00, 0x00, 0x00, 0x54, 0x00, 0x00, 0x00,
  0x1c, 0x00, 0x00, 0x00, 0x04, 0x00, 0x00, 0x00, 0xea, 0xfa, 0xff, 0xff,
  0x04, 0x00, 0x00, 0x00, 0x05, 0x00, 0x00, 0x00, 0x31, 0x2e, 0x35, 0x2e,
  0x30, 0x00, 0x00, 0x00, 0xfe, 0xfa, 0xff, 0xff, 0x04, 0x00, 0x00, 0x00,
  0x28, 0x00, 0x00, 0x00, 0xc7, 0xff, 0xff, 0xff, 0x3d, 0x03, 0x00, 0x00,
  0xd9, 0xff, 0xff, 0xff, 0xc5, 0x02, 0x00, 0x00, 0xa1, 0xfe, 0xff, 0xff,
  0x81, 0xff, 0xff, 0xff, 0x6a, 0xff, 0xff, 0xff, 0x2d, 0x01, 0x00, 0x00,
  0x45, 0x00, 0x00, 0x00, 0xe9, 0xff, 0xff, 0xff, 0x00, 0xfb, 0xff, 0xff,
  0x04, 0xfb, 0xff, 0xff, 0x3a, 0xfb, 0xff, 0xff, 0x04, 0x00, 0x00, 0x00,
  0x94, 0x02, 0x00, 0x00, 0xf7, 0x03, 0x0a, 0x18, 0x1a, 0x1f, 0xe5, 0xa1,
  0x9f, 0x45, 0x6c, 0x0f, 0x0e, 0x5e, 0x40, 0x77, 0x4a, 0x09, 0x20, 0xef,
  0x75, 0x13, 0x74, 0x17, 0x10, 0x10, 0xf6, 0x2f, 0x08, 0x1b, 0x0c, 0xfb,
  0x44, 0xfb, 0x27, 0xf4, 0xf0, 0x07, 0x36, 0x1d, 0x27, 0xb8, 0x13, 0x0d,
  0xe7, 0x0f, 0xc9, 0xe0, 0xdb, 0xf0, 0xd4, 0x20, 0x17, 0xe9, 0xba, 0x04,
  0x08, 0x4a, 0xec, 0x34, 0x1b, 0xeb, 0x45, 0x64, 0x71, 0xe6, 0xfc, 0xbb,
  0xc9, 0x14, 0xfb, 0x0c, 0xbd, 0xeb, 0xda, 0x0e, 0xee, 0xec, 0xcd, 0xed,
  0x1d, 0xc8, 0xd3, 0xf1, 0x31, 0xc1, 0x2e, 0xfc, 0xd9, 0x0b, 0xdc, 0x31,
  0x03, 0xe0, 0xf7, 0xd2, 0xce, 0x2c, 0xc3, 0xb0, 0xdf, 0xbc, 0x0a, 0x01,
  0x02, 0xc2, 0xfa, 0xfa, 0x2b, 0xf1, 0xb7, 0xfb, 0x0d, 0xf6, 0xd1, 0xe3,
  0xe6, 0x2d, 0x17, 0xb0, 0xc8, 0x32, 0xea, 0xe7, 0x29, 0xf9, 0xe1, 0x29,
  0xfd, 0xf1, 0x22, 0xf6, 0xf2, 0x43, 0xcd, 0x31, 0x0f, 0x2e, 0xc4, 0xd2,
  0xf8, 0x02, 0xfe, 0x06, 0x1f, 0xf3, 0xd2, 0xfb, 0xf8, 0xf6, 0xfc, 0x00,
  0xfb, 0xc7, 0xf9, 0x27, 0x09, 0xf1, 0x3a, 0x10, 0x33, 0x14, 0x10, 0xe7,
  0xe8, 0x40, 0x09, 0x11, 0x18, 0x1e, 0x2d, 0x2f, 0x36, 0x1c, 0xe3, 0xfb,
  0xf9, 0x59, 0x01, 0x46, 0x29, 0xf5, 0x2f, 0x56, 0x56, 0xfb, 0xda, 0xcb,
  0x00, 0xaa, 0x0c, 0xf4, 0x02, 0x28, 0xe4, 0xf7, 0x1b, 0xe6, 0xdb, 0x4c,
  0x01, 0xee, 0xe4, 0x05, 0x0a, 0x12, 0xdc, 0x0a, 0xbf, 0xcb, 0xbc, 0xc6,
  0x2f, 0x01, 0xf3, 0x1b, 0xff, 0xd8, 0xf6, 0xe2, 0x2b, 0xc8, 0xfe, 0xee,
  0xd4, 0x01, 0x08, 0xda, 0x0c, 0xdd, 0xc8, 0xf2, 0x6e, 0xd3, 0x08, 0xc2,
  0x23, 0xf9, 0xeb, 0x0f, 0x81, 0xfb, 0xf1, 0xf7, 0xf1, 0xe3, 0xd9, 0x07,
  0xca, 0xfb, 0xca, 0xae, 0x92, 0xc2, 0xe3, 0xe8, 0xb4, 0x1f, 0x09, 0x0c,
  0x23, 0xbd, 0x2c, 0xb2, 0x24, 0x2b, 0x26, 0xd9, 0x39, 0x24, 0xf6, 0x02,
  0x28, 0xd9, 0xc7, 0x57, 0x1b, 0x00, 0xd7, 0xe7, 0x17, 0xfd, 0x4c, 0x0e,
  0x01, 0xec, 0xe9, 0xe9, 0xd6, 0x36, 0xc2, 0x1a, 0x3c, 0xe3, 0xd1, 0xfe,
  0xd4, 0x09, 0x0e, 0x12, 0x17, 0xce, 0x07, 0x09, 0xe5, 0x1d, 0x24, 0x15,
  0x05, 0xfa, 0x12, 0x10, 0xfb, 0x02, 0x3b, 0x39, 0xd8, 0x46, 0x02, 0xf8,
  0x55, 0x2e, 0xd5, 0xeb, 0xe0, 0x3d, 0x1c, 0xca, 0x12, 0x02, 0xb9, 0xf4,
  0xac, 0xee, 0x3b, 0xf9, 0x0b, 0xe8, 0xee, 0xfd, 0xdd, 0x3f, 0x35, 0x3e,
  0x0d, 0xcd, 0xfd, 0x3e, 0xda, 0xea, 0xc3, 0xdf, 0x51, 0xcf, 0x09, 0x28,
  0xec, 0x25, 0x23, 0xf9, 0x5f, 0x15, 0xdf, 0x34, 0x2b, 0xfa, 0xf9, 0x05,
  0x3d, 0x0d, 0x26, 0x2b, 0x4d, 0xf2, 0x3d, 0x1a, 0xd9, 0xe5, 0x25, 0x06,
  0x27, 0x29, 0x2c, 0x24, 0xf1, 0x0f, 0x2e, 0x3e, 0xd8, 0x08, 0x32, 0xe4,
  0x42, 0xdc, 0x3e, 0xf4, 0x02, 0x47, 0xf5, 0xe6, 0x22, 0xeb, 0xfa, 0xdb,
  0xee, 0x13, 0xd9, 0xc6, 0xd5, 0x1e, 0x25, 0x9c, 0x23, 0xef, 0xa8, 0xda,
  0xa2, 0xc3, 0x54, 0xdd, 0xe1, 0xfa, 0xd6, 0x02, 0x29, 0x06, 0x41, 0xfe,
  0xf7, 0xfd, 0x17, 0xe4, 0x28, 0x00, 0xe8, 0x15, 0xe5, 0x07, 0x29, 0x37,
  0x33, 0x2c, 0xdb, 0x03, 0x0f, 0xdb, 0xe0, 0xf5, 0x29, 0xba, 0xeb, 0x37,
  0x05, 0xda, 0x41, 0x38, 0x04, 0x3f, 0x06, 0xe0, 0x64, 0x30, 0xef, 0xb2,
  0x54, 0xf5, 0x30, 0x06, 0x35, 0x41, 0x1e, 0xf3, 0xdd, 0x0a, 0xc5, 0x08,
  0x0f, 0x02, 0xf5, 0xf2, 0x0f, 0xf0, 0x1f, 0x2b, 0xe8, 0xfc, 0x35, 0x12,
  0xdd, 0x10, 0xf5, 0x15, 0x15, 0x05, 0x2f, 0xd4, 0x78, 0xef, 0x32, 0xfd,
  0x35, 0xd8, 0xae, 0xc6, 0x44, 0xd9, 0x36, 0x26, 0xfc, 0x5d, 0xef, 0x16,
  0x4d, 0x08, 0x24, 0x20, 0xfb, 0x45, 0x0a, 0x16, 0x1b, 0x53, 0x22, 0x23,
  0x38, 0xf6, 0xfa, 0xf7, 0x04, 0x4b, 0x5a, 0x1e, 0x28, 0x13, 0x1e, 0x0c,
  0x1c, 0x50, 0x39, 0xf8, 0xf8, 0xed, 0xee, 0x4a, 0x22, 0x2c, 0xe6, 0x28,
  0x19, 0x07, 0xbf, 0x54, 0x05, 0x0a, 0xdf, 0x0c, 0x3d, 0x13, 0xe4, 0xd7,
  0xe5, 0xda, 0xfa, 0xb9, 0xc0, 0x31, 0xdc, 0x03, 0x27, 0xd2, 0xfc, 0xfd,
  0x13, 0x04, 0xe3, 0xee, 0xe4, 0xfb, 0xee, 0xd5, 0x2c, 0xbb, 0xe5, 0x1c,
  0xc2, 0x31, 0xee, 0xca, 0x36, 0x1f, 0x1a, 0x1e, 0x03, 0x03, 0xe8, 0x2e,
  0x50, 0x39, 0x39, 0x0c, 0x0e, 0xa9, 0xc3, 0x12, 0xe1, 0xf2, 0x70, 0x0b,
  0xfe, 0x54, 0xec, 0x0f, 0xb5, 0x05, 0x49, 0xf9, 0xcf, 0x78, 0xb5, 0xcb,
  0x20, 0xe8, 0x07, 0xcf, 0x08, 0x01, 0x2d, 0x26, 0x11, 0x63, 0x35, 0x3e,
  0x21, 0x27, 0xfa, 0x6f, 0x71, 0x2b, 0x58, 0xff, 0x11, 0x3f, 0x39, 0x17,
  0xd2, 0x3d, 0x27, 0x24, 0x63, 0x38, 0xe1, 0x2c, 0x42, 0x00, 0x44, 0xc9,
  0xba, 0xbd, 0xcc, 0x40, 0xa8, 0xfd, 0xff, 0xff, 0xde, 0xfd, 0xff, 0xff,
  0x04, 0x00, 0x00, 0x00, 0x10, 0x00, 0x00, 0x00, 0x22, 0x01, 0x00, 0x00,
  0x53, 0xff, 0xff, 0xff, 0x7d, 0xff, 0xff, 0xff, 0xca, 0xff, 0xff, 0xff,
  0xc8, 0xfd, 0xff, 0xff, 0xcc, 0xfd, 0xff, 0xff, 0x02, 0xfe, 0xff, 0xff,
  0x04, 0x00, 0x00, 0x00, 0x50, 0x00, 0x00, 0x00, 0xfa, 0xfe, 0xff, 0xff,
  0x62, 0x06, 0x00, 0x00, 0x7b, 0xff, 0xff, 0xff, 0xca, 0xfe, 0xff, 0xff,
  0xef, 0x06, 0x00, 0x00, 0xc3, 0x06, 0x00, 0x00, 0x23, 0x05, 0x00, 0x00,
  0x88, 0x07, 0x00, 0x00, 0xd5, 0x05, 0x00, 0x00, 0x78, 0xfe, 0xff, 0xff,
  0x6a, 0x07, 0x00, 0x00, 0x1d, 0xff, 0xff, 0xff, 0x34, 0x06, 0x00, 0x00,
  0xd3, 0xfe, 0xff, 0xff, 0xab, 0xff, 0xff, 0xff, 0x20, 0x06, 0x00, 0x00,
  0x3b, 0xff, 0xff, 0xff, 0x51, 0xff, 0xff, 0xff, 0x11, 0x07, 0x00, 0x00,
  0x93, 0xfc, 0xff, 0xff, 0x5e, 0xfe, 0xff, 0xff, 0x04, 0x00, 0x00, 0x00,
  0xc8, 0x00, 0x00, 0x00, 0xd1, 0xfd, 0x10, 0x08, 0x2d, 0xd7, 0xed, 0x08,
  0xcc, 0xc1, 0xe3, 0xdb, 0x31, 0x2d, 0xf0, 0xfb, 0xc8, 0x05, 0xe8, 0x03,
  0xd3, 0x35, 0xec, 0x04, 0x46, 0x49, 0x65, 0x36, 0x37, 0xc3, 0x3d, 0xc7,
  0x31, 0xf4, 0xb4, 0xfc, 0xf7, 0x0e, 0x4d, 0xb2, 0xcd, 0x29, 0x0f, 0xdf,
  0x24, 0xfd, 0x17, 0xe4, 0x2f, 0x2a, 0xd9, 0xe2, 0x10, 0xc4, 0x13, 0xe9,
  0xf0, 0x39, 0xc6, 0xeb, 0xf1, 0x38, 0xe7, 0xe5, 0x34, 0x12, 0x6a, 0x7f,
  0x38, 0xd1, 0x6e, 0x07, 0x3b, 0xe7, 0xd5, 0x69, 0x0a, 0x24, 0x36, 0xc3,
  0x31, 0x1a, 0xdb, 0xe0, 0xd6, 0x1e, 0xef, 0xcb, 0xc5, 0x3a, 0x1a, 0xb6,
  0xe0, 0x2f, 0xd5, 0x2e, 0x25, 0xe8, 0x60, 0x01, 0x5d, 0x4a, 0xcd, 0x12,
  0xfa, 0xde, 0x03, 0xcc, 0x2b, 0xcb, 0xf2, 0x36, 0xe9, 0x42, 0xcd, 0x5f,
  0xc5, 0x0d, 0xcc, 0x32, 0x50, 0xe5, 0x02, 0x2c, 0x1f, 0xf0, 0xf8, 0xf9,
  0x14, 0x35, 0xbe, 0x1d, 0xb6, 0x01, 0xde, 0x08, 0x2e, 0xf1, 0x3d, 0xdd,
  0x06, 0x73, 0xe4, 0xd0, 0x25, 0xe3, 0x0e, 0x10, 0x28, 0x1c, 0x62, 0x2c,
  0x18, 0x01, 0xe0, 0x13, 0xb9, 0x15, 0xdc, 0x0b, 0xf6, 0x3c, 0x05, 0x25,
  0x5e, 0xf6, 0x27, 0xac, 0xed, 0xd2, 0x3d, 0x27, 0x3e, 0x41, 0xe8, 0x3b,
  0xef, 0x40, 0x25, 0xfb, 0xe2, 0xfc, 0x0a, 0x28, 0xcc, 0x50, 0x24, 0xd6,
  0x5a, 0x02, 0xd4, 0x2f, 0xb8, 0xe8, 0xf0, 0x08, 0x60, 0x33, 0x0d, 0x4e,
  0x32, 0xff, 0xff, 0xff, 0x04, 0x00, 0x00, 0x00, 0x28, 0x00, 0x00, 0x00,
  0xe9, 0x3b, 0x01, 0x4c, 0xe6, 0xcf, 0xbb, 0x0c, 0x10, 0xfc, 0x25, 0xc4,
  0x34, 0x03, 0x2b, 0x08, 0x46, 0xd2, 0x1a, 0x2b, 0xbf, 0x81, 0xd5, 0x22,
  0x17, 0x38, 0xf6, 0x0f, 0x24, 0xc2, 0xc1, 0xf8, 0x23, 0xd2, 0xe1, 0x04,
  0xed, 0xca, 0xb5, 0x56, 0x34, 0xff, 0xff, 0xff, 0x0f, 0x00, 0x00, 0x00,
  0x54, 0x4f, 0x43, 0x4f, 0x20, 0x43, 0x6f, 0x6e, 0x76, 0x65, 0x72, 0x74,
  0x65, 0x64, 0x2e, 0x00, 0x01, 0x00, 0x00, 0x00, 0x04, 0x00, 0x00, 0x00,
  0x7c, 0xf9, 0xff, 0xff, 0x94, 0x01, 0x00, 0x00, 0x88, 0x01, 0x00, 0x00,
  0x7c, 0x01, 0x00, 0x00, 0x04, 0x00, 0x00, 0x00, 0x06, 0x00, 0x00, 0x00,
  0x50, 0x01, 0x00, 0x00, 0x04, 0x01, 0x00, 0x00, 0xbc, 0x00, 0x00, 0x00,
  0x74, 0x00, 0x00, 0x00, 0x38, 0x00, 0x00, 0x00, 0x04, 0x00, 0x00, 0x00,
  0xd2, 0xfe, 0xff, 0xff, 0x03, 0x00, 0x00, 0x00, 0x10, 0x00, 0x00, 0x00,
  0x04, 0x00, 0x00, 0x00, 0x01, 0x00, 0x00, 0x00, 0x0c, 0x00, 0x00, 0x00,
  0x01, 0x00, 0x00, 0x00, 0x00, 0x00, 0x00, 0x00, 0x00, 0x00, 0x0e, 0x00,
  0x1a, 0x00, 0x08, 0x00, 0x0c, 0x00, 0x10, 0x00, 0x07, 0x00, 0x14, 0x00,
  0x0e, 0x00, 0x00, 0x00, 0x00, 0x00, 0x00, 0x09, 0x01, 0x00, 0x00, 0x00,
  0x24, 0x00, 0x00, 0x00, 0x18, 0x00, 0x00, 0x00, 0x0c, 0x00, 0x00, 0x00,
  0x00, 0x00, 0x06, 0x00, 0x08, 0x00, 0x04, 0x00, 0x06, 0x00, 0x00, 0x00,
  0x00, 0x00, 0x80, 0x3f, 0x01, 0x00, 0x00, 0x00, 0x00, 0x00, 0x00, 0x00,
  0x01, 0x00, 0x00, 0x00, 0x07, 0x00, 0x00, 0x00, 0xca, 0xff, 0xff, 0xff,
  0x00, 0x00, 0x00, 0x08, 0x1c, 0x00, 0x00, 0x00, 0x10, 0x00, 0x00, 0x00,
  0x08, 0x00, 0x00, 0x00, 0x04, 0x00, 0x04, 0x00, 0x04, 0x00, 0x00, 0x00,
  0x01, 0x00, 0x00, 0x00, 0x07, 0x00, 0x00, 0x00, 0x03, 0x00, 0x00, 0x00,
  0x06, 0x00, 0x00, 0x00, 0x08, 0x00, 0x00, 0x00, 0x09, 0x00, 0x00, 0x00,
  0x00, 0x00, 0x0e, 0x00, 0x14, 0x00, 0x00, 0x00, 0x08, 0x00, 0x0c, 0x00,
  0x07, 0x00, 0x10, 0x00, 0x0e, 0x00, 0x00, 0x00, 0x00, 0x00, 0x00, 0x08,
  0x1c, 0x00, 0x00, 0x00, 0x10, 0x00, 0x00, 0x00, 0x04, 0x00, 0x00, 0x00,
  0xba, 0xff, 0xff, 0xff, 0x00, 0x00, 0x00, 0x01, 0x01, 0x00, 0x00, 0x00,
  0x06, 0x00, 0x00, 0x00, 0x03, 0x00, 0x00, 0x00, 0x03, 0x00, 0x00, 0x00,
  0x04, 0x00, 0x00, 0x00, 0x05, 0x00, 0x00, 0x00, 0x00, 0x00, 0x0e, 0x00,
  0x16, 0x00, 0x00, 0x00, 0x08, 0x00, 0x0c, 0x00, 0x07, 0x00, 0x10, 0x00,
  0x0e, 0x00, 0x00, 0x00, 0x00, 0x00, 0x00, 0x08, 0x24, 0x00, 0x00, 0x00,
  0x18, 0x00, 0x00, 0x00, 0x0c, 0x00, 0x00, 0x00, 0x00, 0x00, 0x06, 0x00,
  0x08, 0x00, 0x07, 0x00, 0x06, 0x00, 0x00, 0x00, 0x00, 0x00, 0x00, 0x01,
  0x01, 0x00, 0x00, 0x00, 0x03, 0x00, 0x00, 0x00, 0x03, 0x00, 0x00, 0x00,
  0x0a, 0x00, 0x00, 0x00, 0x01, 0x00, 0x00, 0x00, 0x02, 0x00, 0x00, 0x00,
  0x00, 0x00, 0x0a, 0x00, 0x10, 0x00, 0x04, 0x00, 0x08, 0x00, 0x0c, 0x00,
  0x0a, 0x00, 0x00, 0x00, 0x02, 0x00, 0x00, 0x00, 0x10, 0x00, 0x00, 0x00,
  0x04, 0x00, 0x00, 0x00, 0x01, 0x00, 0x00, 0x00, 0x0a, 0x00, 0x00, 0x00,
  0x01, 0x00, 0x00, 0x00, 0x0b, 0x00, 0x00, 0x00, 0x01, 0x00, 0x00, 0x00,
  0x0c, 0x00, 0x00, 0x00, 0x01, 0x00, 0x00, 0x00, 0x0b, 0x00, 0x00, 0x00,
  0x0d, 0x00, 0x00, 0x00, 0x80, 0x05, 0x00, 0x00, 0xcc, 0x04, 0x00, 0x00,
  0x64, 0x04, 0x00, 0x00, 0xe8, 0x03, 0x00, 0x00, 0x4c, 0x03, 0x00, 0x00,
  0xe0, 0x02, 0x00, 0x00, 0x64, 0x02, 0x00, 0x00, 0xe0, 0x01, 0x00, 0x00,
  0x44, 0x01, 0x00, 0x00, 0xd8, 0x00, 0x00, 0x00, 0x64, 0x00, 0x00, 0x00,
  0x3c, 0x00, 0x00, 0x00, 0x04, 0x00, 0x00, 0x00, 0xd8, 0xff, 0xff, 0xff,
  0x18, 0x00, 0x00, 0x00, 0x04, 0x00, 0x00, 0x00, 0x08, 0x00, 0x00, 0x00,
  0x49, 0x64, 0x65, 0x6e, 0x74, 0x69, 0x74, 0x79, 0x00, 0x00, 0x00, 0x00,
  0x02, 0x00, 0x00, 0x00, 0x01, 0x00, 0x00, 0x00, 0x04, 0x00, 0x00, 0x00,
  0x0c, 0x00, 0x0c, 0x00, 0x04, 0x00, 0x00, 0x00, 0x00, 0x00, 0x08, 0x00,
  0x0c, 0x00, 0x00, 0x00, 0x14, 0x00, 0x00, 0x00, 0x04, 0x00, 0x00, 0x00,
  0x07, 0x00, 0x00, 0x00, 0x78, 0x5f, 0x69, 0x6e, 0x70, 0x75, 0x74, 0x00,
  0x02, 0x00, 0x00, 0x00, 0x01, 0x00, 0x00, 0x00, 0x21, 0x00, 0x00, 0x00,
  0x1a, 0xfb, 0xff, 0xff, 0x00, 0x00, 0x00, 0x09, 0x5c, 0x00, 0x00, 0x00,
  0x04, 0x00, 0x00, 0x00, 0x40, 0x00, 0x00, 0x00, 0x04, 0x00, 0x00, 0x00,
  0xbc, 0xfb, 0xff, 0xff, 0x2c, 0x00, 0x00, 0x00, 0x20, 0x00, 0x00, 0x00,
  0x14, 0x00, 0x00, 0x00, 0x04, 0x00, 0x00, 0x00, 0x01, 0x00, 0x00, 0x00,
  0x80, 0xff, 0xff, 0xff, 0xff, 0xff, 0xff, 0xff, 0x01, 0x00, 0x00, 0x00,
  0x6d, 0x00, 0x59, 0x3d, 0x01, 0x00, 0x00, 0x00, 0x6d, 0x27, 0x58, 0x41,
  0x01, 0x00, 0x00, 0x00, 0x00, 0x00, 0x00, 0x00, 0x0c, 0x00, 0x00, 0x00,
  0x78, 0x5f, 0x69, 0x6e, 0x70, 0x75, 0x74, 0x5f, 0x69, 0x6e, 0x74, 0x38,
  0x00, 0x00, 0x00, 0x00, 0x02, 0x00, 0x00, 0x00, 0x01, 0x00, 0x00, 0x00,
  0x21, 0x00, 0x00, 0x00, 0x8a, 0xfb, 0xff, 0xff, 0x00, 0x00, 0x00, 0x02,
  0x58, 0x00, 0x00, 0x00, 0x06, 0x00, 0x00, 0x00, 0x2c, 0x00, 0x00, 0x00,
  0x04, 0x00, 0x00, 0x00, 0x7c, 0xfb, 0xff, 0xff, 0x18, 0x00, 0x00, 0x00,
  0x04, 0x00, 0x00, 0x00, 0x01, 0x00, 0x00, 0x00, 0x00, 0x00, 0x00, 0x00,
  0x00, 0x00, 0x00, 0x00, 0x00, 0x00, 0x00, 0x00, 0x01, 0x00, 0x00, 0x00,
  0xae, 0x41, 0xa7, 0x3a, 0x1d, 0x00, 0x00, 0x00, 0x73, 0x65, 0x71, 0x75,
  0x65, 0x6e, 0x74, 0x69, 0x61, 0x6c, 0x2f, 0x79, 0x5f, 0x70, 0x72, 0x65,
  0x64, 0x2f, 0x4d, 0x61, 0x74, 0x4d, 0x75, 0x6c, 0x5f, 0x62, 0x69, 0x61,
  0x73, 0x00, 0x00, 0x00, 0x01, 0x00, 0x00, 0x00, 0x04, 0x00, 0x00, 0x00,
  0xf2, 0xfb, 0xff, 0xff, 0x00, 0x00, 0x00, 0x09, 0x84, 0x00, 0x00, 0x00,
  0x01, 0x00, 0x00, 0x00, 0x44, 0x00, 0x00, 0x00, 0x04, 0x00, 0x00, 0x00,
  0x94, 0xfc, 0xff, 0xff, 0x30, 0x00, 0x00, 0x00, 0x24, 0x00, 0x00, 0x00,
  0x18, 0x00, 0x00, 0x00, 0x04, 0x00, 0x00, 0x00, 0x01, 0x00, 0x00, 0x00,
  0x00, 0x00, 0x00, 0x00, 0x00, 0x00, 0x00, 0x00, 0x00, 0x00, 0x00, 0x00,
  0x01, 0x00, 0x00, 0x00, 0x44, 0xf8, 0x1d, 0x3c, 0x01, 0x00, 0x00, 0x00,
  0x4b, 0x18, 0x55, 0x3f, 0x01, 0x00, 0x00, 0x00, 0x53, 0xbc, 0x9c, 0xbf,
  0x31, 0x00, 0x00, 0x00, 0x73, 0x65, 0x71, 0x75, 0x65, 0x6e, 0x74, 0x69,
  0x61, 0x6c, 0x2f, 0x79, 0x5f, 0x70, 0x72, 0x65, 0x64, 0x2f, 0x4d, 0x61,
  0x74, 0x4d, 0x75, 0x6c, 0x2f, 0x52, 0x65, 0x61, 0x64, 0x56, 0x61, 0x72,
  0x69, 0x61, 0x62, 0x6c, 0x65, 0x4f, 0x70, 0x2f, 0x74, 0x72, 0x61, 0x6e,
  0x73, 0x70, 0x6f, 0x73, 0x65, 0x00, 0x00, 0x00, 0x02, 0x00, 0x00, 0x00,
  0x04, 0x00, 0x00, 0x00, 0x0a, 0x00, 0x00, 0x00, 0x8a, 0xfc, 0xff, 0xff,
  0x00, 0x00, 0x00, 0x09, 0x6c, 0x00, 0x00, 0x00, 0x05, 0x00, 0x00, 0x00,
  0x44, 0x00, 0x00, 0x00, 0x04, 0x00, 0x00, 0x00, 0x2c, 0xfd, 0xff, 0xff,
  0x30, 0x00, 0x00, 0x00, 0x24, 0x00, 0x00, 0x00, 0x18, 0x00, 0x00, 0x00,
  0x04, 0x00, 0x00, 0x00, 0x01, 0x00, 0x00, 0x00, 0xf3, 0xff, 0xff, 0xff,
  0xff, 0xff, 0xff, 0xff, 0x00, 0x00, 0x00, 0x00, 0x01, 0x00, 0x00, 0x00,
  0x02, 0x32, 0x4c, 0x3e, 0x01, 0x00, 0x00, 0x00, 0xb7, 0x0e, 0xe0, 0x41,
  0x01, 0x00, 0x00, 0x00, 0xe9, 0xbc, 0xb6, 0xc1, 0x19, 0x00, 0x00, 0x00,
  0x73, 0x65, 0x71, 0x75, 0x65, 0x6e, 0x74, 0x69, 0x61, 0x6c, 0x2f, 0x79,
  0x5f, 0x70, 0x72, 0x65, 0x64, 0x2f, 0x42, 0x69, 0x61, 0x73, 0x41, 0x64,
  0x64, 0x00, 0x00, 0x00, 0x02, 0x00, 0x00, 0x00, 0x01, 0x00, 0x00, 0x00,
  0x04, 0x00, 0x00, 0x00, 0x0a, 0xfd, 0xff, 0xff, 0x00, 0x00, 0x00, 0x09,
  0x64, 0x00, 0x00, 0x00, 0x0a, 0x00, 0x00, 0x00, 0x40, 0x00, 0x00, 0x00,
  0x04, 0x00, 0x00, 0x00, 0xac, 0xfd, 0xff, 0xff, 0x2c, 0x00, 0x00, 0x00,
  0x20, 0x00, 0x00, 0x00, 0x14, 0x00, 0x00, 0x00, 0x04, 0x00, 0x00, 0x00,
  0x01, 0x00, 0x00, 0x00, 0x80, 0xff, 0xff, 0xff, 0xff, 0xff, 0xff, 0xff,
  0x01, 0x00, 0x00, 0x00, 0x60, 0x86, 0x07, 0x3e, 0x01, 0x00, 0x00, 0x00,
  0xda, 0xfe, 0x06, 0x42, 0x01, 0x00, 0x00, 0x00, 0x00, 0x00, 0x00, 0x00,
  0x17, 0x00, 0x00, 0x00, 0x73, 0x65, 0x71, 0x75, 0x65, 0x6e, 0x74, 0x69,
  0x61, 0x6c, 0x2f, 0x64, 0x65, 0x6e, 0x73, 0x65, 0x5f, 0x31, 0x2f, 0x52,
  0x65, 0x6c, 0x75, 0x00, 0x02, 0x00, 0x00, 0x00, 0x01, 0x00, 0x00, 0x00,
  0x0a, 0x00, 0x00, 0x00, 0x82, 0xfd, 0xff, 0xff, 0x00, 0x00, 0x00, 0x02,
  0x58, 0x00, 0x00, 0x00, 0x0b, 0x00, 0x00, 0x00, 0x2c, 0x00, 0x00, 0x00,
  0x04, 0x00, 0x00, 0x00, 0x74, 0xfd, 0xff, 0xff, 0x18, 0x00, 0x00, 0x00,
  0x04, 0x00, 0x00, 0x00, 0x01, 0x00, 0x00, 0x00, 0x00, 0x00, 0x00, 0x00,
  0x00, 0x00, 0x00, 0x00, 0x00, 0x00, 0x00, 0x00, 0x01, 0x00, 0x00, 0x00,
  0x4e, 0x9a, 0x21, 0x3a, 0x1e, 0x00, 0x00, 0x00, 0x73, 0x65, 0x71, 0x75,
  0x65, 0x6e, 0x74, 0x69, 0x61, 0x6c, 0x2f, 0x64, 0x65, 0x6e, 0x73, 0x65,
  0x5f, 0x31, 0x2f, 0x4d, 0x61, 0x74, 0x4d, 0x75, 0x6c, 0x5f, 0x62, 0x69,
  0x61, 0x73, 0x00, 0x00, 0x01, 0x00, 0x00, 0x00, 0x0a, 0x00, 0x00, 0x00,
  0xea, 0xfd, 0xff, 0xff, 0x00, 0x00, 0x00, 0x09, 0x84, 0x00, 0x00, 0x00,
  0x02, 0x00, 0x00, 0x00, 0x44, 0x00, 0x00, 0x00, 0x04, 0x00, 0x00, 0x00,
  0x8c, 0xfe, 0xff, 0xff, 0x30, 0x00, 0x00, 0x00, 0x24, 0x00, 0x00, 0x00,
  0x18, 0x00, 0x00, 0x00, 0x04, 0x00, 0x00, 0x00, 0x01, 0x00, 0x00, 0x00,
  0x00, 0x00, 0x00, 0x00, 0x00, 0x00, 0x00, 0x00, 0x00, 0x00, 0x00, 0x00,
  0x01, 0x00, 0x00, 0x00, 0xc4, 0xfc, 0xe5, 0x3b, 0x01, 0x00, 0x00, 0x00,
  0xca, 0x30, 0x64, 0x3f, 0x01, 0x00, 0x00, 0x00, 0x40, 0x87, 0x16, 0xbf,
  0x32, 0x00, 0x00, 0x00, 0x73, 0x65, 0x71, 0x75, 0x65, 0x6e, 0x74, 0x69,
  0x61, 0x6c, 0x2f, 0x64, 0x65, 0x6e, 0x73, 0x65, 0x5f, 0x31, 0x2f, 0x4d,
  0x61, 0x74, 0x4d, 0x75, 0x6c, 0x2f, 0x52, 0x65, 0x61, 0x64, 0x56, 0x61,
  0x72, 0x69, 0x61, 0x62, 0x6c, 0x65, 0x4f, 0x70, 0x2f, 0x74, 0x72, 0x61,
  0x6e, 0x73, 0x70, 0x6f, 0x73, 0x65, 0x00, 0x00, 0x02, 0x00, 0x00, 0x00,
  0x0a, 0x00, 0x00, 0x00, 0x14, 0x00, 0x00, 0x00, 0x82, 0xfe, 0xff, 0xff,
  0x00, 0x00, 0x00, 0x09, 0x64, 0x00, 0x00, 0x00, 0x07, 0x00, 0x00, 0x00,
  0x40, 0x00, 0x00, 0x00, 0x04, 0x00, 0x00, 0x00, 0x24, 0xff, 0xff, 0xff,
  0x2c, 0x00, 0x00, 0x00, 0x20, 0x00, 0x00, 0x00, 0x14, 0x00, 0x00, 0x00,
  0x04, 0x00, 0x00, 0x00, 0x01, 0x00, 0x00, 0x00, 0x80, 0xff, 0xff, 0xff,
  0xff, 0xff, 0xff, 0xff, 0x01, 0x00, 0x00, 0x00, 0x7a, 0xe1, 0xb3, 0x3d,
  0x01, 0x00, 0x00, 0x00, 0x99, 0x2d, 0xb3, 0x41, 0x01, 0x00, 0x00, 0x00,
  0x00, 0x00, 0x00, 0x00, 0x15, 0x00, 0x00, 0x00, 0x73, 0x65, 0x71, 0x75,
  0x65, 0x6e, 0x74, 0x69, 0x61, 0x6c, 0x2f, 0x64, 0x65, 0x6e, 0x73, 0x65,
  0x2f, 0x52, 0x65, 0x6c, 0x75, 0x00, 0x00, 0x00, 0x02, 0x00, 0x00, 0x00,
  0x01, 0x00, 0x00, 0x00, 0x14, 0x00, 0x00, 0x00, 0xfa, 0xfe, 0xff, 0xff,
  0x00, 0x00, 0x00, 0x02, 0x54, 0x00, 0x00, 0x00, 0x03, 0x00, 0x00, 0x00,
  0x28, 0x00, 0x00, 0x00, 0x04, 0x00, 0x00, 0x00, 0xec, 0xfe, 0xff, 0xff,
  0x14, 0x00, 0x00, 0x00, 0x04, 0x00, 0x00, 0x00, 0x01, 0x00, 0x00, 0x00,
  0x00, 0x00, 0x00, 0x00, 0x00, 0x00, 0x00, 0x00, 0x01, 0x00, 0x00, 0x00,
  0xda, 0xcf, 0x8c, 0x39, 0x1c, 0x00, 0x00, 0x00, 0x73, 0x65, 0x71, 0x75,
  0x65, 0x6e, 0x74, 0x69, 0x61, 0x6c, 0x2f, 0x64, 0x65, 0x6e, 0x73, 0x65,
  0x2f, 0x4d, 0x61, 0x74, 0x4d, 0x75, 0x6c, 0x5f, 0x62, 0x69, 0x61, 0x73,
  0x00, 0x00, 0x00, 0x00, 0x01, 0x00, 0x00, 0x00, 0x14, 0x00, 0x00, 0x00,
  0x5e, 0xff, 0xff, 0xff, 0x00, 0x00, 0x00, 0x09, 0x8c, 0x00, 0x00, 0x00,
  0x08, 0x00, 0x00, 0x00, 0x4c, 0x00, 0x00, 0x00, 0x10, 0x00, 0x00, 0x00,
  0x0c, 0x00, 0x14, 0x00, 0x04, 0x00, 0x08, 0x00, 0x0c, 0x00, 0x10, 0x00,
  0x0c, 0x00, 0x00, 0x00, 0x2c, 0x00, 0x00, 0x00, 0x20, 0x00, 0x00, 0x00,
  0x14, 0x00, 0x00, 0x00, 0x04, 0x00, 0x00, 0x00, 0x01, 0x00, 0x00, 0x00,
  0x00, 0x00, 0x00, 0x00, 0x00, 0x00, 0x00, 0x00, 0x01, 0x00, 0x00, 0x00,
  0x2c, 0x1e, 0xa6, 0x3b, 0x01, 0x00, 0x00, 0x00, 0x56, 0xbf, 0x1b, 0x3f,
  0x01, 0x00, 0x00, 0x00, 0xf0, 0xd1, 0x24, 0xbf, 0x30, 0x00, 0x00, 0x00,
  0x73, 0x65, 0x71, 0x75, 0x65, 0x6e, 0x74, 0x69, 0x61, 0x6c, 0x2f, 0x64,
  0x65, 0x6e, 0x73, 0x65, 0x2f, 0x4d, 0x61, 0x74, 0x4d, 0x75, 0x6c, 0x2f,
  0x52, 0x65, 0x61, 0x64, 0x56, 0x61, 0x72, 0x69, 0x61, 0x62, 0x6c, 0x65,
  0x4f, 0x70, 0x2f, 0x74, 0x72, 0x61, 0x6e, 0x73, 0x70, 0x6f, 0x73, 0x65,
  0x00, 0x00, 0x00, 0x00, 0x02, 0x00, 0x00, 0x00, 0x14, 0x00, 0x00, 0x00,
  0x21, 0x00, 0x00, 0x00, 0x00, 0x00, 0x0e, 0x00, 0x18, 0x00, 0x08, 0x00,
  0x07, 0x00, 0x0c, 0x00, 0x10, 0x00, 0x14, 0x00, 0x0e, 0x00, 0x00, 0x00,
  0x00, 0x00, 0x00, 0x09, 0x54, 0x00, 0x00, 0x00, 0x09, 0x00, 0x00, 0x00,
  0x38, 0x00, 0x00, 0x00, 0x10, 0x00, 0x00, 0x00, 0x0c, 0x00, 0x0c, 0x00,
  0x00, 0x00, 0x00, 0x00, 0x04, 0x00, 0x08, 0x00, 0x0c, 0x00, 0x00, 0x00,
  0x18, 0x00, 0x00, 0x00, 0x04, 0x00, 0x00, 0x00, 0x01, 0x00, 0x00, 0x00,
  0x80, 0xff, 0xff, 0xff, 0xff, 0xff, 0xff, 0xff, 0x00, 0x00, 0x00, 0x00,
  0x01, 0x00, 0x00, 0x00, 0x00, 0x00, 0x80, 0x3b, 0x0d, 0x00, 0x00, 0x00,
  0x49, 0x64, 0x65, 0x6e, 0x74, 0x69, 0x74, 0x79, 0x5f, 0x69, 0x6e, 0x74,
  0x38, 0x00, 0x00, 0x00, 0x02, 0x00, 0x00, 0x00, 0x01, 0x00, 0x00, 0x00,
  0x04, 0x00, 0x00, 0x00, 0x04, 0x00, 0x00, 0x00, 0x4c, 0x00, 0x00, 0x00,
  0x30, 0x00, 0x00, 0x00, 0x1c, 0x00, 0x00, 0x00, 0x04, 0x00, 0x00, 0x00,
  0xe6, 0xff, 0xff, 0xff, 0x00, 0x00, 0x00, 0x06, 0x02, 0x00, 0x00, 0x00,
  0x00, 0x00, 0x06, 0x00, 0x06, 0x00, 0x05, 0x00, 0x06, 0x00, 0x00, 0x00,
  0x00, 0x72, 0x0a, 0x00, 0x0e, 0x00, 0x07, 0x00, 0x00, 0x00, 0x08, 0x00,
  0x0a, 0x00, 0x00, 0x00, 0x00, 0x00, 0x00, 0x19, 0x02, 0x00, 0x00, 0x00,
  0x00, 0x00, 0x0a, 0x00, 0x0c, 0x00, 0x07, 0x00, 0x00, 0x00, 0x08, 0x00,
  0x0a, 0x00, 0x00, 0x00, 0x00, 0x00, 0x00, 0x09, 0x04, 0x00, 0x00, 0x00
};
unsigned int trained_tflite_len = 3360;
